TRT-8403-EntropyCalibration
images: 3c010a14
input.4: 3e215d03
input.8: 3d9189ff
input.16: 3e83b87c
input.20: 3e75bf5b
input.28: 3d2b8480
input.32: 3d2f4701
input.40: 3d954dac
input.44: 3d049e3a
input.52: 3d8b8cf6
onnx::Concat_373: 3dad5e3b
input.60: 3df32403
onnx::Concat_377: 3d3dc1fc
input.64: 3d98b456
input.72: 3cc8610c
input.76: 3cbf99d6
input.84: 3d02bf0d
input.88: 3ce33c8e
input.96: 3c9d3309
input.100: 3c79a6c8
input.108: 3cd16473
input.112: 3cd1a089
input.120: 3cf8c8e5
input.124: 3d0d03de
input.132: 3ccd542b
input.136: 3c74bccf
input.144: 3d13b67b
onnx::Concat_408: 3d456c13
input.152: 3cfe35f8
onnx::Concat_412: 3d24fc3c
input.156: 3d3bc68d
input.164: 3d0c4628
input.168: 3c66843a
input.176: 3d58d5cf
input.180: 3cc158c9
input.188: 3cdb5434
input.192: 3bf28654
input.200: 3d0d94f0
input.204: 3cc12915
input.212: 3d043bbf
input.216: 3c991dd2
input.224: 3d319034
input.228: 3cec6d8b
input.236: 3d2f3887
input.240: 3d204139
input.248: 3d577a23
input.252: 3cc3bd35
input.260: 3d663b7a
onnx::Concat_452: 3d633a85
input.268: 3d28ecd9
onnx::Concat_456: 3d031c82
input.272: 3d13c781
input.280: 3d4266b5
input.284: 3cb39473
input.292: 3d53c2e8
input.296: 3c9a3a3e
input.304: 3d273c86
input.308: 3b84e10e
input.316: 3d7f153f
input.320: 3ce684df
input.328: 3da49c21
onnx::Concat_478: 3d630b87
input.336: 3d682fc7
onnx::Concat_482: 3ce5b567
input.340: 3d127708
input.348: 3da2437e
input.352: 3d03d126
input.360: 3d37021a
onnx::MaxPool_491: 3d250f2c
onnx::MaxPool_492: 3d3b3f2d
onnx::MaxPool_493: 3d42da9b
onnx::Concat_494: 3d42da9b
input.364: 3d42da9b
input.372: 3d5a190b
input.376: 3c315d6d
input.384: 3d942411
input.388: 3cc353eb
onnx::Concat_508: 3cc353eb
input.392: 3cc353eb
input.400: 3d65131c
input.404: 3c9abfdf
input.412: 3d486ff2
input.416: 3cb169b0
input.424: 3d5cb060
onnx::Concat_521: 3cb156bb
input.432: 3d55054a
onnx::Concat_525: 3c99a8cd
input.436: 3cb156bb
input.444: 3d77e2ba
input.448: 3c6734fd
input.456: 3d424b4f
input.460: 3ce6a3bd
onnx::Concat_539: 3ce6a3bd
input.464: 3cc09da2
input.472: 3d25313b
input.476: 3c805687
input.484: 3d3765f6
input.488: 3c9a49de
input.496: 3db52928
onnx::Concat_552: 3d1105b9
input.504: 3d8d385b
onnx::Concat_556: 3d8f4a88
input.508: 3d251293
input.516: 3e32ff6a
input.520: 3dc2df64
input.528: 3d657daa
onnx::Concat_565: 3cc049dd
input.532: 3cc09da2
input.540: 3d513abf
input.544: 3cd204ce
input.552: 3d7071d2
input.556: 3cc32465
input.564: 3da87f15
onnx::Concat_578: 3d11e4c4
input.572: 3d7c34e3
onnx::Concat_582: 3d1136e4
input.576: 3d1181eb
input.584: 3e12217f
input.588: 3d6e46d5
input.596: 3d91d2fa
onnx::Concat_591: 3d2615be
input.600: 3d01b97f
input.608: 3d9c6ac6
input.612: 3d01ed44
input.620: 3d9aafc3
input.624: 3c8fadec
input.632: 3dab47f3
onnx::Concat_604: 3ce7bfe4
input.640: 3d843678
onnx::Concat_608: 3d26ee30
input.644: 3d10eecc
input.652: 3de9337e
input.656: 3d27b9a5
onnx::Reshape_614: 3eac62c6
onnx::Sigmoid_627: 3eac62c6
onnx::Split_628: 3c00c6fe
onnx::Mul_629: 3c03b3a8
onnx::Mul_630: 3c00c6fe
onnx::Concat_631: 3bfa2320
(Unnamed Layer* 213) [Constant]_output: 3f1e465d
onnx::Concat_637: 40a1ff13
(Unnamed Layer* 224) [Constant]_output: 3d8ec667
onnx::Concat_643: 3e8c40e5
onnx::Reshape_644: 40a0bd20
onnx::Concat_651: 40a0bd20
onnx::Reshape_652: 3e3fb3e8
onnx::Sigmoid_665: 3e3fb3e8
onnx::Split_666: 3c03466e
onnx::Mul_667: 3bfe2d0d
onnx::Mul_668: 3c09318a
onnx::Concat_669: 3bff966e
(Unnamed Layer* 238) [Constant]_output: 3e9b4020
onnx::Concat_675: 40ac1300
(Unnamed Layer* 249) [Constant]_output: 3e17f95f
onnx::Concat_681: 3f1cc3b3
onnx::Reshape_682: 40a0c675
onnx::Concat_689: 40a0c675
onnx::Reshape_690: 3e05754e
onnx::Sigmoid_703: 3e05754e
onnx::Split_704: 3c00eb1a
onnx::Mul_705: 3c0243dd
onnx::Mul_706: 3c01ac63
onnx::Concat_707: 3c035afa
(Unnamed Layer* 263) [Constant]_output: 3e1533a7
onnx::Concat_713: 40a044c5
(Unnamed Layer* 274) [Constant]_output: 3edca6fc
onnx::Concat_719: 3fcaaeb3
onnx::Reshape_720: 40a044c5
onnx::Concat_727: 40a044c5
output0: 40a0e55f
